/*
 * dht_classifier_model.h
 *
 * Auto-generated by notebooks/train_and_export.py -- do not edit by hand.
 *
 * Model:    MLP 2 -> 16 -> 8 -> 3 (softmax), in-graph Normalization layer.
 * Source:   Keras (TensorFlow 2.21.0)
 * Quant:    TFLite dynamic range (weights int8, activations float32)
 * Size:     3972 bytes
 *
 * The C array is `alignas(16)` so TFLite Micro can mmap it without
 * unaligned-access traps on ESP32.
 */
#ifndef DHT_CLASSIFIER_MODEL_H
#define DHT_CLASSIFIER_MODEL_H

#ifdef __cplusplus
extern "C" {
#endif

#if defined(__has_include)
#  if __has_include(<cstdalign>)
#    include <cstdalign>
#  endif
#endif

alignas(16) const unsigned char dht_classifier_model_tflite[] = {
    0x1c, 0x00, 0x00, 0x00, 0x54, 0x46, 0x4c, 0x33, 0x14, 0x00, 0x20, 0x00,
    0x1c, 0x00, 0x18, 0x00, 0x14, 0x00, 0x10, 0x00, 0x0c, 0x00, 0x00, 0x00,
    0x08, 0x00, 0x04, 0x00, 0x14, 0x00, 0x00, 0x00, 0x1c, 0x00, 0x00, 0x00,
    0x98, 0x00, 0x00, 0x00, 0xf0, 0x00, 0x00, 0x00, 0x9c, 0x05, 0x00, 0x00,
    0xac, 0x05, 0x00, 0x00, 0x00, 0x0f, 0x00, 0x00, 0x03, 0x00, 0x00, 0x00,
    0x01, 0x00, 0x00, 0x00, 0x10, 0x00, 0x00, 0x00, 0x00, 0x00, 0x0a, 0x00,
    0x10, 0x00, 0x0c, 0x00, 0x08, 0x00, 0x04, 0x00, 0x0a, 0x00, 0x00, 0x00,
    0x0c, 0x00, 0x00, 0x00, 0x1c, 0x00, 0x00, 0x00, 0x3c, 0x00, 0x00, 0x00,
    0x0f, 0x00, 0x00, 0x00, 0x73, 0x65, 0x72, 0x76, 0x69, 0x6e, 0x67, 0x5f,
    0x64, 0x65, 0x66, 0x61, 0x75, 0x6c, 0x74, 0x00, 0x01, 0x00, 0x00, 0x00,
    0x04, 0x00, 0x00, 0x00, 0x90, 0xff, 0xff, 0xff, 0x0e, 0x00, 0x00, 0x00,
    0x04, 0x00, 0x00, 0x00, 0x08, 0x00, 0x00, 0x00, 0x6f, 0x75, 0x74, 0x70,
    0x75, 0x74, 0x5f, 0x30, 0x00, 0x00, 0x00, 0x00, 0x01, 0x00, 0x00, 0x00,
    0x04, 0x00, 0x00, 0x00, 0x52, 0xfa, 0xff, 0xff, 0x04, 0x00, 0x00, 0x00,
    0x0e, 0x00, 0x00, 0x00, 0x69, 0x6e, 0x70, 0x75, 0x74, 0x5f, 0x66, 0x65,
    0x61, 0x74, 0x75, 0x72, 0x65, 0x73, 0x00, 0x00, 0x02, 0x00, 0x00, 0x00,
    0x34, 0x00, 0x00, 0x00, 0x04, 0x00, 0x00, 0x00, 0xdc, 0xff, 0xff, 0xff,
    0x11, 0x00, 0x00, 0x00, 0x04, 0x00, 0x00, 0x00, 0x13, 0x00, 0x00, 0x00,
    0x43, 0x4f, 0x4e, 0x56, 0x45, 0x52, 0x53, 0x49, 0x4f, 0x4e, 0x5f, 0x4d,
    0x45, 0x54, 0x41, 0x44, 0x41, 0x54, 0x41, 0x00, 0x08, 0x00, 0x0c, 0x00,
    0x08, 0x00, 0x04, 0x00, 0x08, 0x00, 0x00, 0x00, 0x10, 0x00, 0x00, 0x00,
    0x04, 0x00, 0x00, 0x00, 0x13, 0x00, 0x00, 0x00, 0x6d, 0x69, 0x6e, 0x5f,
    0x72, 0x75, 0x6e, 0x74, 0x69, 0x6d, 0x65, 0x5f, 0x76, 0x65, 0x72, 0x73,
    0x69, 0x6f, 0x6e, 0x00, 0x12, 0x00, 0x00, 0x00, 0xa8, 0x04, 0x00, 0x00,
    0xa0, 0x04, 0x00, 0x00, 0x70, 0x04, 0x00, 0x00, 0x20, 0x04, 0x00, 0x00,
    0x04, 0x04, 0x00, 0x00, 0x94, 0x03, 0x00, 0x00, 0x84, 0x01, 0x00, 0x00,
    0xf4, 0x00, 0x00, 0x00, 0xdc, 0x00, 0x00, 0x00, 0xc4, 0x00, 0x00, 0x00,
    0xbc, 0x00, 0x00, 0x00, 0xb4, 0x00, 0x00, 0x00, 0xac, 0x00, 0x00, 0x00,
    0xa4, 0x00, 0x00, 0x00, 0x9c, 0x00, 0x00, 0x00, 0x94, 0x00, 0x00, 0x00,
    0x74, 0x00, 0x00, 0x00, 0x04, 0x00, 0x00, 0x00, 0x16, 0xfb, 0xff, 0xff,
    0x04, 0x00, 0x00, 0x00, 0x60, 0x00, 0x00, 0x00, 0x0c, 0x00, 0x00, 0x00,
    0x08, 0x00, 0x0e, 0x00, 0x08, 0x00, 0x04, 0x00, 0x08, 0x00, 0x00, 0x00,
    0x10, 0x00, 0x00, 0x00, 0x28, 0x00, 0x00, 0x00, 0x00, 0x00, 0x06, 0x00,
    0x08, 0x00, 0x04, 0x00, 0x06, 0x00, 0x00, 0x00, 0x04, 0x00, 0x00, 0x00,
    0x01, 0x00, 0x00, 0x00, 0xea, 0x03, 0x00, 0x00, 0x0c, 0x00, 0x18, 0x00,
    0x14, 0x00, 0x10, 0x00, 0x0c, 0x00, 0x04, 0x00, 0x0c, 0x00, 0x00, 0x00,
    0xa0, 0xe2, 0x65, 0xd0, 0xc5, 0xbf, 0x54, 0xb9, 0x02, 0x00, 0x00, 0x00,
    0x02, 0x00, 0x00, 0x00, 0x04, 0x00, 0x00, 0x00, 0x06, 0x00, 0x00, 0x00,
    0x32, 0x2e, 0x32, 0x31, 0x2e, 0x30, 0x00, 0x00, 0x82, 0xfb, 0xff, 0xff,
    0x04, 0x00, 0x00, 0x00, 0x10, 0x00, 0x00, 0x00, 0x31, 0x2e, 0x36, 0x2e,
    0x30, 0x00, 0x00, 0x00, 0x00, 0x00, 0x00, 0x00, 0x00, 0x00, 0x00, 0x00,
    0xf4, 0xf2, 0xff, 0xff, 0xf8, 0xf2, 0xff, 0xff, 0xfc, 0xf2, 0xff, 0xff,
    0x00, 0xf3, 0xff, 0xff, 0x04, 0xf3, 0xff, 0xff, 0x08, 0xf3, 0xff, 0xff,
    0xb6, 0xfb, 0xff, 0xff, 0x04, 0x00, 0x00, 0x00, 0x08, 0x00, 0x00, 0x00,
    0xde, 0x27, 0xd0, 0x41, 0x3a, 0x90, 0x55, 0x42, 0xca, 0xfb, 0xff, 0xff,
    0x04, 0x00, 0x00, 0x00, 0x08, 0x00, 0x00, 0x00, 0xb1, 0xdc, 0xf8, 0x3d,
    0xcd, 0xb0, 0x68, 0x3d, 0xde, 0xfb, 0xff, 0xff, 0x04, 0x00, 0x00, 0x00,
    0x80, 0x00, 0x00, 0x00, 0x38, 0x08, 0x65, 0x3f, 0x8c, 0x61, 0x24, 0xbf,
    0x0f, 0xf3, 0x78, 0x3f, 0x45, 0xc7, 0x42, 0xbd, 0x94, 0x66, 0xb1, 0xbe,
    0xcf, 0x55, 0x7c, 0x3e, 0xe8, 0xa0, 0x95, 0x3f, 0x21, 0xde, 0x71, 0xbf,
    0x46, 0x9f, 0x97, 0xbf, 0xee, 0x01, 0x4f, 0xbf, 0x74, 0x32, 0x3b, 0x3f,
    0x70, 0xe2, 0x22, 0x3f, 0x94, 0x62, 0xaa, 0x3f, 0xc0, 0x97, 0x28, 0x3f,
    0xbd, 0x1a, 0xb5, 0xbf, 0x11, 0xf3, 0x8e, 0xbe, 0x9b, 0x87, 0x34, 0x3e,
    0x20, 0x07, 0x64, 0x3e, 0x40, 0x3e, 0x94, 0x3f, 0x1c, 0x8f, 0x1a, 0xbf,
    0x79, 0x02, 0xc1, 0xbf, 0xf0, 0x08, 0x8b, 0x3e, 0xd6, 0x40, 0x8c, 0xbf,
    0x22, 0x6d, 0x01, 0x3f, 0xfa, 0x21, 0x9d, 0x3f, 0x53, 0x69, 0x0d, 0x3f,
    0xab, 0x50, 0x11, 0x3e, 0xf3, 0x15, 0x49, 0xbe, 0xc9, 0xef, 0xf2, 0xbb,
    0xac, 0x50, 0x62, 0xbf, 0x05, 0x5a, 0x8f, 0x3e, 0xe6, 0xf3, 0x43, 0x3e,
    0x6a, 0xfc, 0xff, 0xff, 0x04, 0x00, 0x00, 0x00, 0x00, 0x02, 0x00, 0x00,
    0xa3, 0x75, 0x7d, 0x3f, 0x7b, 0xcb, 0x75, 0xbf, 0x47, 0x6f, 0x89, 0x3f,
    0xe6, 0x89, 0x16, 0xbf, 0x9e, 0x3b, 0x4f, 0xbe, 0x34, 0x4e, 0x2e, 0xbf,
    0x9c, 0xc7, 0x3b, 0xbf, 0x22, 0x5e, 0x1d, 0xbf, 0x04, 0x4b, 0x72, 0x3f,
    0xd0, 0x2f, 0x8b, 0xbf, 0xfc, 0x20, 0xc5, 0xbe, 0xf8, 0xa3, 0x81, 0xbf,
    0x54, 0x60, 0xee, 0xbe, 0xae, 0x55, 0xca, 0x3f, 0xca, 0x86, 0x5d, 0xbf,
    0x7e, 0x73, 0x88, 0x3f, 0xaa, 0xd7, 0x36, 0x3d, 0x8c, 0x73, 0xa2, 0x3e,
    0x93, 0xa7, 0x67, 0x3e, 0x8d, 0x03, 0x83, 0x3f, 0xac, 0xb2, 0x63, 0x3f,
    0x2b, 0xdd, 0x8c, 0x3f, 0x6c, 0x78, 0xf0, 0x3e, 0x86, 0x9e, 0x96, 0x3f,
    0xd7, 0x30, 0x57, 0x3d, 0x93, 0x21, 0x20, 0x3f, 0x1a, 0x6c, 0x0c, 0x3f,
    0x6d, 0x8b, 0x3d, 0x3f, 0x53, 0x55, 0xe3, 0x3e, 0xad, 0x41, 0x1a, 0xbf,
    0xf1, 0x71, 0x9e, 0x3f, 0x21, 0x05, 0xe0, 0xbe, 0xec, 0x0e, 0x0b, 0x3f,
    0xb4, 0x5e, 0x18, 0x3f, 0x33, 0xc3, 0x4b, 0xbf, 0x77, 0xf5, 0xd9, 0xbe,
    0xe8, 0xc8, 0x1f, 0xbf, 0x15, 0x4a, 0x15, 0xbe, 0x78, 0x70, 0x03, 0x3f,
    0xde, 0x7f, 0x0f, 0xbd, 0xcf, 0xd7, 0x1f, 0xbc, 0x7d, 0xd6, 0x81, 0x3e,
    0xd3, 0x99, 0x87, 0x3e, 0x20, 0x93, 0x56, 0xbf, 0x68, 0xf7, 0x15, 0x3f,
    0x9b, 0xaa, 0xae, 0xbe, 0xd5, 0xda, 0xde, 0xbe, 0xaa, 0x85, 0xad, 0xbd,
    0xf0, 0x73, 0xb7, 0x3e, 0x32, 0x6a, 0x39, 0x3f, 0xd2, 0xcb, 0x9e, 0x3c,
    0x23, 0x93, 0xb2, 0x3e, 0xcb, 0x96, 0xed, 0x3e, 0xaf, 0xd0, 0x4f, 0x3f,
    0x97, 0x0b, 0x60, 0x3f, 0xb6, 0x0a, 0x55, 0x3f, 0x78, 0x80, 0x8b, 0xbe,
    0x5a, 0x37, 0x9a, 0x3f, 0x7e, 0x3f, 0x9b, 0x3f, 0xbb, 0xca, 0xc3, 0x3f,
    0xac, 0x4a, 0x61, 0x3f, 0xcd, 0xda, 0x11, 0xbf, 0xef, 0xb4, 0xa3, 0x3f,
    0xd9, 0x9a, 0x9d, 0xbe, 0xfe, 0xf7, 0x07, 0x3f, 0x4b, 0xeb, 0x5c, 0x3f,
    0x2d, 0xc0, 0xbf, 0x3e, 0x23, 0x75, 0xd3, 0x3d, 0x1d, 0x2d, 0x47, 0x3e,
    0x82, 0x40, 0x38, 0xbe, 0xf7, 0x93, 0x1e, 0x3f, 0x6f, 0xe2, 0xad, 0x3f,
    0x09, 0x1f, 0x80, 0x3e, 0xde, 0x5e, 0x2f, 0x3f, 0x56, 0xf7, 0xa2, 0x3f,
    0xf8, 0x67, 0x13, 0x3f, 0xb0, 0x5e, 0x0b, 0x3f, 0xa2, 0x3d, 0x4f, 0x3e,
    0x1f, 0xf9, 0xf1, 0x3d, 0x69, 0xd9, 0xc2, 0x3e, 0xa2, 0x34, 0x32, 0xbf,
    0x6b, 0xc9, 0x40, 0x3e, 0x87, 0x65, 0x00, 0x3f, 0xfa, 0x65, 0xaa, 0x3f,
    0x75, 0x4e, 0x96, 0x3e, 0x06, 0xee, 0x8c, 0x3f, 0xcf, 0xa6, 0xf5, 0x3e,
    0x6d, 0x9d, 0x3b, 0x3e, 0x2f, 0x9a, 0x87, 0xbe, 0x81, 0x0a, 0xcc, 0x3e,
    0x41, 0xff, 0xbb, 0x3d, 0x60, 0xac, 0x3f, 0x3f, 0x10, 0x66, 0x8d, 0x3d,
    0x09, 0xe7, 0x29, 0xbf, 0xaf, 0xba, 0x76, 0x3f, 0x15, 0x79, 0xf8, 0xbe,
    0x7d, 0xc2, 0x1f, 0x3f, 0x2b, 0x13, 0xa8, 0x3f, 0x3b, 0xe5, 0x30, 0xbf,
    0x16, 0x82, 0x2f, 0x3f, 0x00, 0xc0, 0x61, 0x3f, 0xd2, 0xb6, 0x41, 0x3c,
    0x26, 0x35, 0x8c, 0x3f, 0xe0, 0x2d, 0x54, 0x3f, 0x6f, 0xb1, 0x82, 0x3e,
    0x98, 0x4e, 0x8f, 0x3f, 0xea, 0xb2, 0x2f, 0x3f, 0x7e, 0x0c, 0x96, 0x3f,
    0xea, 0x7a, 0x85, 0x3f, 0xa6, 0x99, 0x17, 0xbf, 0x10, 0x09, 0xcd, 0x3f,
    0x06, 0xb2, 0x34, 0xbd, 0x22, 0x3e, 0x01, 0x3f, 0x38, 0xa2, 0xda, 0xbf,
    0xa8, 0x1e, 0x83, 0x3f, 0x0d, 0x9c, 0x81, 0xbe, 0xdf, 0xaa, 0x5f, 0xbf,
    0x90, 0xc6, 0x84, 0xbe, 0x38, 0x6e, 0xca, 0xbd, 0xf9, 0x66, 0x95, 0xbf,
    0x74, 0xcd, 0x24, 0x3f, 0x4e, 0x49, 0x73, 0xbf, 0x7b, 0x4a, 0x21, 0xbf,
    0x31, 0x79, 0xc3, 0xbf, 0x1a, 0x37, 0x46, 0xbf, 0x84, 0x3e, 0x24, 0x3f,
    0xb9, 0xa4, 0x89, 0xbf, 0x38, 0x25, 0x29, 0x3f, 0x76, 0xfe, 0xff, 0xff,
    0x04, 0x00, 0x00, 0x00, 0x60, 0x00, 0x00, 0x00, 0xf6, 0x11, 0xa6, 0x3f,
    0xc7, 0xb6, 0x07, 0xc0, 0x56, 0x51, 0xf7, 0xbf, 0xdc, 0xe1, 0x1d, 0xc0,
    0xc3, 0x87, 0x63, 0xbf, 0x17, 0xfe, 0x93, 0xbf, 0x21, 0xbe, 0xd3, 0xbf,
    0x96, 0xa1, 0xf9, 0x3f, 0x82, 0xc9, 0xf7, 0x3e, 0x46, 0x6f, 0x67, 0xbe,
    0x78, 0x94, 0xcb, 0x3e, 0x6b, 0xdd, 0x0e, 0xbe, 0x8a, 0x6c, 0x87, 0x3f,
    0x69, 0x8a, 0x9b, 0xbf, 0x86, 0x9d, 0x9c, 0x3d, 0x1a, 0xdc, 0x84, 0xbf,
    0xde, 0x41, 0xd3, 0xbf, 0x0a, 0x25, 0xb0, 0x3f, 0x14, 0x38, 0x1f, 0xbf,
    0x63, 0x13, 0x82, 0x3f, 0x3b, 0x87, 0xf1, 0x3d, 0x5c, 0xaa, 0xd1, 0x3f,
    0xf5, 0xfa, 0x00, 0x3f, 0xd1, 0x3e, 0xb6, 0xbf, 0xe2, 0xfe, 0xff, 0xff,
    0x04, 0x00, 0x00, 0x00, 0x0c, 0x00, 0x00, 0x00, 0x1d, 0x74, 0x91, 0x3e,
    0xef, 0xee, 0x8e, 0x3e, 0x09, 0x1f, 0x26, 0xbf, 0xfa, 0xfe, 0xff, 0xff,
    0x04, 0x00, 0x00, 0x00, 0x40, 0x00, 0x00, 0x00, 0x9f, 0x4a, 0x95, 0x3f,
    0xbf, 0x77, 0xb2, 0xbe, 0xb7, 0x6c, 0x63, 0x3f, 0x1e, 0x61, 0x3d, 0xbe,
    0x2f, 0x42, 0x80, 0x3d, 0xa6, 0x41, 0x89, 0xbd, 0xdd, 0x78, 0x60, 0xbe,
    0x49, 0x78, 0x78, 0xbe, 0x4a, 0xbf, 0x99, 0x3f, 0x03, 0x4e, 0x70, 0x3d,
    0x2f, 0x58, 0xa6, 0xbe, 0x08, 0xd2, 0xd3, 0xbd, 0x2d, 0x22, 0x4d, 0xbe,
    0x8b, 0x43, 0x74, 0x3f, 0xa5, 0x19, 0x0c, 0xbf, 0x83, 0x31, 0x87, 0x3f,
    0x46, 0xff, 0xff, 0xff, 0x04, 0x00, 0x00, 0x00, 0x20, 0x00, 0x00, 0x00,
    0x20, 0xd4, 0x4a, 0x3f, 0x64, 0x43, 0xf3, 0xbe, 0x6c, 0x0f, 0x02, 0x3c,
    0xba, 0x3b, 0xcb, 0xbe, 0x16, 0x0e, 0x1f, 0xbb, 0x19, 0x25, 0xd7, 0xbd,
    0x17, 0x68, 0xc0, 0xbe, 0x19, 0x9e, 0x05, 0x3f, 0xc8, 0xf6, 0xff, 0xff,
    0xcc, 0xf6, 0xff, 0xff, 0x0f, 0x00, 0x00, 0x00, 0x4d, 0x4c, 0x49, 0x52,
    0x20, 0x43, 0x6f, 0x6e, 0x76, 0x65, 0x72, 0x74, 0x65, 0x64, 0x2e, 0x00,
    0x01, 0x00, 0x00, 0x00, 0x14, 0x00, 0x00, 0x00, 0x00, 0x00, 0x0e, 0x00,
    0x18, 0x00, 0x14, 0x00, 0x10, 0x00, 0x0c, 0x00, 0x08, 0x00, 0x04, 0x00,
    0x0e, 0x00, 0x00, 0x00, 0x14, 0x00, 0x00, 0x00, 0x1c, 0x00, 0x00, 0x00,
    0xa4, 0x01, 0x00, 0x00, 0xa8, 0x01, 0x00, 0x00, 0xac, 0x01, 0x00, 0x00,
    0x04, 0x00, 0x00, 0x00, 0x6d, 0x61, 0x69, 0x6e, 0x00, 0x00, 0x00, 0x00,
    0x06, 0x00, 0x00, 0x00, 0x5c, 0x01, 0x00, 0x00, 0x18, 0x01, 0x00, 0x00,
    0xc4, 0x00, 0x00, 0x00, 0x78, 0x00, 0x00, 0x00, 0x40, 0x00, 0x00, 0x00,
    0x04, 0x00, 0x00, 0x00, 0x5a, 0xff, 0xff, 0xff, 0x1c, 0x00, 0x00, 0x00,
    0x00, 0x00, 0x00, 0x09, 0x1c, 0x00, 0x00, 0x00, 0x20, 0x00, 0x00, 0x00,
    0x03, 0x00, 0x00, 0x00, 0x00, 0x00, 0x06, 0x00, 0x08, 0x00, 0x04, 0x00,
    0x06, 0x00, 0x00, 0x00, 0x00, 0x00, 0x80, 0x3f, 0x01, 0x00, 0x00, 0x00,
    0x0e, 0x00, 0x00, 0x00, 0x01, 0x00, 0x00, 0x00, 0x0d, 0x00, 0x00, 0x00,
    0x42, 0xff, 0xff, 0xff, 0x14, 0x00, 0x00, 0x00, 0x00, 0x00, 0x00, 0x08,
    0x10, 0x00, 0x00, 0x00, 0x14, 0x00, 0x00, 0x00, 0x02, 0x00, 0x00, 0x00,
    0x8c, 0xf7, 0xff, 0xff, 0x01, 0x00, 0x00, 0x00, 0x0d, 0x00, 0x00, 0x00,
    0x03, 0x00, 0x00, 0x00, 0x0c, 0x00, 0x00, 0x00, 0x04, 0x00, 0x00, 0x00,
    0x03, 0x00, 0x00, 0x00, 0x76, 0xff, 0xff, 0xff, 0x14, 0x00, 0x00, 0x00,
    0x00, 0x00, 0x00, 0x08, 0x14, 0x00, 0x00, 0x00, 0x18, 0x00, 0x00, 0x00,
    0x02, 0x00, 0x00, 0x00, 0xb6, 0xff, 0xff, 0xff, 0x00, 0x00, 0x00, 0x01,
    0x01, 0x00, 0x00, 0x00, 0x0c, 0x00, 0x00, 0x00, 0x03, 0x00, 0x00, 0x00,
    0x0b, 0x00, 0x00, 0x00, 0x05, 0x00, 0x00, 0x00, 0x01, 0x00, 0x00, 0x00,
    0x00, 0x00, 0x0e, 0x00, 0x1a, 0x00, 0x14, 0x00, 0x10, 0x00, 0x0c, 0x00,
    0x0b, 0x00, 0x04, 0x00, 0x0e, 0x00, 0x00, 0x00, 0x1c, 0x00, 0x00, 0x00,
    0x00, 0x00, 0x00, 0x08, 0x1c, 0x00, 0x00, 0x00, 0x20, 0x00, 0x00, 0x00,
    0x02, 0x00, 0x00, 0x00, 0x00, 0x00, 0x06, 0x00, 0x08, 0x00, 0x07, 0x00,
    0x06, 0x00, 0x00, 0x00, 0x00, 0x00, 0x00, 0x01, 0x01, 0x00, 0x00, 0x00,
    0x0b, 0x00, 0x00, 0x00, 0x03, 0x00, 0x00, 0x00, 0x0a, 0x00, 0x00, 0x00,
    0x06, 0x00, 0x00, 0x00, 0x02, 0x00, 0x00, 0x00, 0x00, 0x00, 0x0e, 0x00,
    0x18, 0x00, 0x14, 0x00, 0x10, 0x00, 0x0c, 0x00, 0x0b, 0x00, 0x04, 0x00,
    0x0e, 0x00, 0x00, 0x00, 0x14, 0x00, 0x00, 0x00, 0x00, 0x00, 0x00, 0x15,
    0x10, 0x00, 0x00, 0x00, 0x14, 0x00, 0x00, 0x00, 0x01, 0x00, 0x00, 0x00,
    0x58, 0xf8, 0xff, 0xff, 0x01, 0x00, 0x00, 0x00, 0x0a, 0x00, 0x00, 0x00,
    0x02, 0x00, 0x00, 0x00, 0x09, 0x00, 0x00, 0x00, 0x07, 0x00, 0x00, 0x00,
    0x00, 0x00, 0x0e, 0x00, 0x14, 0x00, 0x00, 0x00, 0x10, 0x00, 0x0c, 0x00,
    0x0b, 0x00, 0x04, 0x00, 0x0e, 0x00, 0x00, 0x00, 0x10, 0x00, 0x00, 0x00,
    0x00, 0x00, 0x00, 0x1c, 0x0c, 0x00, 0x00, 0x00, 0x10, 0x00, 0x00, 0x00,
    0x94, 0xf8, 0xff, 0xff, 0x01, 0x00, 0x00, 0x00, 0x09, 0x00, 0x00, 0x00,
    0x02, 0x00, 0x00, 0x00, 0x00, 0x00, 0x00, 0x00, 0x08, 0x00, 0x00, 0x00,
    0x01, 0x00, 0x00, 0x00, 0x0e, 0x00, 0x00, 0x00, 0x01, 0x00, 0x00, 0x00,
    0x00, 0x00, 0x00, 0x00, 0x0f, 0x00, 0x00, 0x00, 0x18, 0x07, 0x00, 0x00,
    0x80, 0x06, 0x00, 0x00, 0xe8, 0x05, 0x00, 0x00, 0x90, 0x05, 0x00, 0x00,
    0x34, 0x05, 0x00, 0x00, 0xd8, 0x04, 0x00, 0x00, 0x7c, 0x04, 0x00, 0x00,
    0xd8, 0x03, 0x00, 0x00, 0xa0, 0x03, 0x00, 0x00, 0x28, 0x03, 0x00, 0x00,
    0x74, 0x02, 0x00, 0x00, 0xb4, 0x01, 0x00, 0x00, 0xf4, 0x00, 0x00, 0x00,
    0x60, 0x00, 0x00, 0x00, 0x04, 0x00, 0x00, 0x00, 0x3a, 0xf9, 0xff, 0xff,
    0x00, 0x00, 0x00, 0x01, 0x14, 0x00, 0x00, 0x00, 0x1c, 0x00, 0x00, 0x00,
    0x1c, 0x00, 0x00, 0x00, 0x0f, 0x00, 0x00, 0x00, 0x34, 0x00, 0x00, 0x00,
    0x02, 0x00, 0x00, 0x00, 0xff, 0xff, 0xff, 0xff, 0x03, 0x00, 0x00, 0x00,
    0x24, 0xf9, 0xff, 0xff, 0x1b, 0x00, 0x00, 0x00, 0x53, 0x74, 0x61, 0x74,
    0x65, 0x66, 0x75, 0x6c, 0x50, 0x61, 0x72, 0x74, 0x69, 0x74, 0x69, 0x6f,
    0x6e, 0x65, 0x64, 0x43, 0x61, 0x6c, 0x6c, 0x5f, 0x31, 0x3a, 0x30, 0x00,
    0x02, 0x00, 0x00, 0x00, 0x01, 0x00, 0x00, 0x00, 0x03, 0x00, 0x00, 0x00,
    0x92, 0xf9, 0xff, 0xff, 0x00, 0x00, 0x00, 0x01, 0x14, 0x00, 0x00, 0x00,
    0x1c, 0x00, 0x00, 0x00, 0x1c, 0x00, 0x00, 0x00, 0x0e, 0x00, 0x00, 0x00,
    0x6c, 0x00, 0x00, 0x00, 0x02, 0x00, 0x00, 0x00, 0xff, 0xff, 0xff, 0xff,
    0x03, 0x00, 0x00, 0x00, 0x7c, 0xf9, 0xff, 0xff, 0x52, 0x00, 0x00, 0x00,
    0x64, 0x68, 0x74, 0x5f, 0x61, 0x6e, 0x6f, 0x6d, 0x61, 0x6c, 0x79, 0x5f,
    0x63, 0x6c, 0x61, 0x73, 0x73, 0x69, 0x66, 0x69, 0x65, 0x72, 0x5f, 0x31,
    0x2f, 0x6f, 0x75, 0x74, 0x70, 0x75, 0x74, 0x5f, 0x31, 0x2f, 0x4d, 0x61,
    0x74, 0x4d, 0x75, 0x6c, 0x3b, 0x64, 0x68, 0x74, 0x5f, 0x61, 0x6e, 0x6f,
    0x6d, 0x61, 0x6c, 0x79, 0x5f, 0x63, 0x6c, 0x61, 0x73, 0x73, 0x69, 0x66,
    0x69, 0x65, 0x72, 0x5f, 0x31, 0x2f, 0x6f, 0x75, 0x74, 0x70, 0x75, 0x74,
    0x5f, 0x31, 0x2f, 0x42, 0x69, 0x61, 0x73, 0x41, 0x64, 0x64, 0x00, 0x00,
    0x02, 0x00, 0x00, 0x00, 0x01, 0x00, 0x00, 0x00, 0x03, 0x00, 0x00, 0x00,
    0x22, 0xfa, 0xff, 0xff, 0x00, 0x00, 0x00, 0x01, 0x14, 0x00, 0x00, 0x00,
    0x1c, 0x00, 0x00, 0x00, 0x1c, 0x00, 0x00, 0x00, 0x0d, 0x00, 0x00, 0x00,
    0x98, 0x00, 0x00, 0x00, 0x02, 0x00, 0x00, 0x00, 0xff, 0xff, 0xff, 0xff,
    0x08, 0x00, 0x00, 0x00, 0x0c, 0xfa, 0xff, 0xff, 0x7c, 0x00, 0x00, 0x00,
    0x64, 0x68, 0x74, 0x5f, 0x61, 0x6e, 0x6f, 0x6d, 0x61, 0x6c, 0x79, 0x5f,
    0x63, 0x6c, 0x61, 0x73, 0x73, 0x69, 0x66, 0x69, 0x65, 0x72, 0x5f, 0x31,
    0x2f, 0x64, 0x65, 0x6e, 0x73, 0x65, 0x5f, 0x32, 0x5f, 0x31, 0x2f, 0x4d,
    0x61, 0x74, 0x4d, 0x75, 0x6c, 0x3b, 0x64, 0x68, 0x74, 0x5f, 0x61, 0x6e,
    0x6f, 0x6d, 0x61, 0x6c, 0x79, 0x5f, 0x63, 0x6c, 0x61, 0x73, 0x73, 0x69,
    0x66, 0x69, 0x65, 0x72, 0x5f, 0x31, 0x2f, 0x64, 0x65, 0x6e, 0x73, 0x65,
    0x5f, 0x32, 0x5f, 0x31, 0x2f, 0x52, 0x65, 0x6c, 0x75, 0x3b, 0x64, 0x68,
    0x74, 0x5f, 0x61, 0x6e, 0x6f, 0x6d, 0x61, 0x6c, 0x79, 0x5f, 0x63, 0x6c,
    0x61, 0x73, 0x73, 0x69, 0x66, 0x69, 0x65, 0x72, 0x5f, 0x31, 0x2f, 0x64,
    0x65, 0x6e, 0x73, 0x65, 0x5f, 0x32, 0x5f, 0x31, 0x2f, 0x42, 0x69, 0x61,
    0x73, 0x41, 0x64, 0x64, 0x00, 0x00, 0x00, 0x00, 0x02, 0x00, 0x00, 0x00,
    0x01, 0x00, 0x00, 0x00, 0x08, 0x00, 0x00, 0x00, 0xde, 0xfa, 0xff, 0xff,
    0x00, 0x00, 0x00, 0x01, 0x14, 0x00, 0x00, 0x00, 0x1c, 0x00, 0x00, 0x00,
    0x1c, 0x00, 0x00, 0x00, 0x0c, 0x00, 0x00, 0x00, 0x98, 0x00, 0x00, 0x00,
    0x02, 0x00, 0x00, 0x00, 0xff, 0xff, 0xff, 0xff, 0x10, 0x00, 0x00, 0x00,
    0xc8, 0xfa, 0xff, 0xff, 0x7c, 0x00, 0x00, 0x00, 0x64, 0x68, 0x74, 0x5f,
    0x61, 0x6e, 0x6f, 0x6d, 0x61, 0x6c, 0x79, 0x5f, 0x63, 0x6c, 0x61, 0x73,
    0x73, 0x69, 0x66, 0x69, 0x65, 0x72, 0x5f, 0x31, 0x2f, 0x64, 0x65, 0x6e,
    0x73, 0x65, 0x5f, 0x31, 0x5f, 0x31, 0x2f, 0x4d, 0x61, 0x74, 0x4d, 0x75,
    0x6c, 0x3b, 0x64, 0x68, 0x74, 0x5f, 0x61, 0x6e, 0x6f, 0x6d, 0x61, 0x6c,
    0x79, 0x5f, 0x63, 0x6c, 0x61, 0x73, 0x73, 0x69, 0x66, 0x69, 0x65, 0x72,
    0x5f, 0x31, 0x2f, 0x64, 0x65, 0x6e, 0x73, 0x65, 0x5f, 0x31, 0x5f, 0x31,
    0x2f, 0x52, 0x65, 0x6c, 0x75, 0x3b, 0x64, 0x68, 0x74, 0x5f, 0x61, 0x6e,
    0x6f, 0x6d, 0x61, 0x6c, 0x79, 0x5f, 0x63, 0x6c, 0x61, 0x73, 0x73, 0x69,
    0x66, 0x69, 0x65, 0x72, 0x5f, 0x31, 0x2f, 0x64, 0x65, 0x6e, 0x73, 0x65,
    0x5f, 0x31, 0x5f, 0x31, 0x2f, 0x42, 0x69, 0x61, 0x73, 0x41, 0x64, 0x64,
    0x00, 0x00, 0x00, 0x00, 0x02, 0x00, 0x00, 0x00, 0x01, 0x00, 0x00, 0x00,
    0x10, 0x00, 0x00, 0x00, 0x9a, 0xfb, 0xff, 0xff, 0x00, 0x00, 0x00, 0x01,
    0x14, 0x00, 0x00, 0x00, 0x1c, 0x00, 0x00, 0x00, 0x1c, 0x00, 0x00, 0x00,
    0x0b, 0x00, 0x00, 0x00, 0x8c, 0x00, 0x00, 0x00, 0x02, 0x00, 0x00, 0x00,
    0xff, 0xff, 0xff, 0xff, 0x02, 0x00, 0x00, 0x00, 0x84, 0xfb, 0xff, 0xff,
    0x72, 0x00, 0x00, 0x00, 0x64, 0x68, 0x74, 0x5f, 0x61, 0x6e, 0x6f, 0x6d,
    0x61, 0x6c, 0x79, 0x5f, 0x63, 0x6c, 0x61, 0x73, 0x73, 0x69, 0x66, 0x69,
    0x65, 0x72, 0x5f, 0x31, 0x2f, 0x66, 0x65, 0x61, 0x74, 0x75, 0x72, 0x65,
    0x5f, 0x6e, 0x6f, 0x72, 0x6d, 0x61, 0x6c, 0x69, 0x7a, 0x61, 0x74, 0x69,
    0x6f, 0x6e, 0x5f, 0x31, 0x2f, 0x74, 0x72, 0x75, 0x65, 0x64, 0x69, 0x76,
    0x3b, 0x64, 0x68, 0x74, 0x5f, 0x61, 0x6e, 0x6f, 0x6d, 0x61, 0x6c, 0x79,
    0x5f, 0x63, 0x6c, 0x61, 0x73, 0x73, 0x69, 0x66, 0x69, 0x65, 0x72, 0x5f,
    0x31, 0x2f, 0x66, 0x65, 0x61, 0x74, 0x75, 0x72, 0x65, 0x5f, 0x6e, 0x6f,
    0x72, 0x6d, 0x61, 0x6c, 0x69, 0x7a, 0x61, 0x74, 0x69, 0x6f, 0x6e, 0x5f,
    0x31, 0x2f, 0x4d, 0x61, 0x78, 0x69, 0x6d, 0x75, 0x6d, 0x31, 0x00, 0x00,
    0x02, 0x00, 0x00, 0x00, 0x01, 0x00, 0x00, 0x00, 0x02, 0x00, 0x00, 0x00,
    0x4a, 0xfc, 0xff, 0xff, 0x00, 0x00, 0x00, 0x01, 0x14, 0x00, 0x00, 0x00,
    0x1c, 0x00, 0x00, 0x00, 0x1c, 0x00, 0x00, 0x00, 0x0a, 0x00, 0x00, 0x00,
    0x50, 0x00, 0x00, 0x00, 0x02, 0x00, 0x00, 0x00, 0xff, 0xff, 0xff, 0xff,
    0x02, 0x00, 0x00, 0x00, 0x34, 0xfc, 0xff, 0xff, 0x34, 0x00, 0x00, 0x00,
    0x64, 0x68, 0x74, 0x5f, 0x61, 0x6e, 0x6f, 0x6d, 0x61, 0x6c, 0x79, 0x5f,
    0x63, 0x6c, 0x61, 0x73, 0x73, 0x69, 0x66, 0x69, 0x65, 0x72, 0x5f, 0x31,
    0x2f, 0x66, 0x65, 0x61, 0x74, 0x75, 0x72, 0x65, 0x5f, 0x6e, 0x6f, 0x72,
    0x6d, 0x61, 0x6c, 0x69, 0x7a, 0x61, 0x74, 0x69, 0x6f, 0x6e, 0x5f, 0x31,
    0x2f, 0x53, 0x75, 0x62, 0x00, 0x00, 0x00, 0x00, 0x02, 0x00, 0x00, 0x00,
    0x01, 0x00, 0x00, 0x00, 0x02, 0x00, 0x00, 0x00, 0x52, 0xfd, 0xff, 0xff,
    0x00, 0x00, 0x00, 0x01, 0x10, 0x00, 0x00, 0x00, 0x10, 0x00, 0x00, 0x00,
    0x09, 0x00, 0x00, 0x00, 0x14, 0x00, 0x00, 0x00, 0x98, 0xfc, 0xff, 0xff,
    0x07, 0x00, 0x00, 0x00, 0x43, 0x6f, 0x6e, 0x73, 0x74, 0x5f, 0x31, 0x00,
    0x02, 0x00, 0x00, 0x00, 0x01, 0x00, 0x00, 0x00, 0x02, 0x00, 0x00, 0x00,
    0x86, 0xfd, 0xff, 0xff, 0x00, 0x00, 0x00, 0x01, 0x10, 0x00, 0x00, 0x00,
    0x10, 0x00, 0x00, 0x00, 0x08, 0x00, 0x00, 0x00, 0x80, 0x00, 0x00, 0x00,
    0xcc, 0xfc, 0xff, 0xff, 0x71, 0x00, 0x00, 0x00, 0x64, 0x68, 0x74, 0x5f,
    0x61, 0x6e, 0x6f, 0x6d, 0x61, 0x6c, 0x79, 0x5f, 0x63, 0x6c, 0x61, 0x73,
    0x73, 0x69, 0x66, 0x69, 0x65, 0x72, 0x5f, 0x31, 0x2f, 0x66, 0x65, 0x61,
    0x74, 0x75, 0x72, 0x65, 0x5f, 0x6e, 0x6f, 0x72, 0x6d, 0x61, 0x6c, 0x69,
    0x7a, 0x61, 0x74, 0x69, 0x6f, 0x6e, 0x5f, 0x31, 0x2f, 0x74, 0x72, 0x75,
    0x65, 0x64, 0x69, 0x76, 0x3b, 0x64, 0x68, 0x74, 0x5f, 0x61, 0x6e, 0x6f,
    0x6d, 0x61, 0x6c, 0x79, 0x5f, 0x63, 0x6c, 0x61, 0x73, 0x73, 0x69, 0x66,
    0x69, 0x65, 0x72, 0x5f, 0x31, 0x2f, 0x66, 0x65, 0x61, 0x74, 0x75, 0x72,
    0x65, 0x5f, 0x6e, 0x6f, 0x72, 0x6d, 0x61, 0x6c, 0x69, 0x7a, 0x61, 0x74,
    0x69, 0x6f, 0x6e, 0x5f, 0x31, 0x2f, 0x4d, 0x61, 0x78, 0x69, 0x6d, 0x75,
    0x6d, 0x00, 0x00, 0x00, 0x02, 0x00, 0x00, 0x00, 0x01, 0x00, 0x00, 0x00,
    0x02, 0x00, 0x00, 0x00, 0x26, 0xfe, 0xff, 0xff, 0x00, 0x00, 0x00, 0x01,
    0x10, 0x00, 0x00, 0x00, 0x10, 0x00, 0x00, 0x00, 0x07, 0x00, 0x00, 0x00,
    0x38, 0x00, 0x00, 0x00, 0x6c, 0xfd, 0xff, 0xff, 0x29, 0x00, 0x00, 0x00,
    0x64, 0x68, 0x74, 0x5f, 0x61, 0x6e, 0x6f, 0x6d, 0x61, 0x6c, 0x79, 0x5f,
    0x63, 0x6c, 0x61, 0x73, 0x73, 0x69, 0x66, 0x69, 0x65, 0x72, 0x5f, 0x31,
    0x2f, 0x64, 0x65, 0x6e, 0x73, 0x65, 0x5f, 0x31, 0x5f, 0x31, 0x2f, 0x4d,
    0x61, 0x74, 0x4d, 0x75, 0x6c, 0x00, 0x00, 0x00, 0x02, 0x00, 0x00, 0x00,
    0x10, 0x00, 0x00, 0x00, 0x02, 0x00, 0x00, 0x00, 0x7e, 0xfe, 0xff, 0xff,
    0x00, 0x00, 0x00, 0x01, 0x10, 0x00, 0x00, 0x00, 0x10, 0x00, 0x00, 0x00,
    0x06, 0x00, 0x00, 0x00, 0x38, 0x00, 0x00, 0x00, 0xc4, 0xfd, 0xff, 0xff,
    0x29, 0x00, 0x00, 0x00, 0x64, 0x68, 0x74, 0x5f, 0x61, 0x6e, 0x6f, 0x6d,
    0x61, 0x6c, 0x79, 0x5f, 0x63, 0x6c, 0x61, 0x73, 0x73, 0x69, 0x66, 0x69,
    0x65, 0x72, 0x5f, 0x31, 0x2f, 0x64, 0x65, 0x6e, 0x73, 0x65, 0x5f, 0x32,
    0x5f, 0x31, 0x2f, 0x4d, 0x61, 0x74, 0x4d, 0x75, 0x6c, 0x00, 0x00, 0x00,
    0x02, 0x00, 0x00, 0x00, 0x08, 0x00, 0x00, 0x00, 0x10, 0x00, 0x00, 0x00,
    0xd6, 0xfe, 0xff, 0xff, 0x00, 0x00, 0x00, 0x01, 0x10, 0x00, 0x00, 0x00,
    0x10, 0x00, 0x00, 0x00, 0x05, 0x00, 0x00, 0x00, 0x38, 0x00, 0x00, 0x00,
    0x1c, 0xfe, 0xff, 0xff, 0x28, 0x00, 0x00, 0x00, 0x64, 0x68, 0x74, 0x5f,
    0x61, 0x6e, 0x6f, 0x6d, 0x61, 0x6c, 0x79, 0x5f, 0x63, 0x6c, 0x61, 0x73,
    0x73, 0x69, 0x66, 0x69, 0x65, 0x72, 0x5f, 0x31, 0x2f, 0x6f, 0x75, 0x74,
    0x70, 0x75, 0x74, 0x5f, 0x31, 0x2f, 0x4d, 0x61, 0x74, 0x4d, 0x75, 0x6c,
    0x00, 0x00, 0x00, 0x00, 0x02, 0x00, 0x00, 0x00, 0x03, 0x00, 0x00, 0x00,
    0x08, 0x00, 0x00, 0x00, 0x2e, 0xff, 0xff, 0xff, 0x00, 0x00, 0x00, 0x01,
    0x10, 0x00, 0x00, 0x00, 0x10, 0x00, 0x00, 0x00, 0x04, 0x00, 0x00, 0x00,
    0x38, 0x00, 0x00, 0x00, 0x74, 0xfe, 0xff, 0xff, 0x29, 0x00, 0x00, 0x00,
    0x64, 0x68, 0x74, 0x5f, 0x61, 0x6e, 0x6f, 0x6d, 0x61, 0x6c, 0x79, 0x5f,
    0x63, 0x6c, 0x61, 0x73, 0x73, 0x69, 0x66, 0x69, 0x65, 0x72, 0x5f, 0x31,
    0x2f, 0x6f, 0x75, 0x74, 0x70, 0x75, 0x74, 0x5f, 0x31, 0x2f, 0x42, 0x69,
    0x61, 0x73, 0x41, 0x64, 0x64, 0x00, 0x00, 0x00, 0x01, 0x00, 0x00, 0x00,
    0x03, 0x00, 0x00, 0x00, 0x82, 0xff, 0xff, 0xff, 0x00, 0x00, 0x00, 0x01,
    0x10, 0x00, 0x00, 0x00, 0x10, 0x00, 0x00, 0x00, 0x03, 0x00, 0x00, 0x00,
    0x60, 0x00, 0x00, 0x00, 0xc8, 0xfe, 0xff, 0xff, 0x52, 0x00, 0x00, 0x00,
    0x64, 0x68, 0x74, 0x5f, 0x61, 0x6e, 0x6f, 0x6d, 0x61, 0x6c, 0x79, 0x5f,
    0x63, 0x6c, 0x61, 0x73, 0x73, 0x69, 0x66, 0x69, 0x65, 0x72, 0x5f, 0x31,
    0x2f, 0x64, 0x65, 0x6e, 0x73, 0x65, 0x5f, 0x31, 0x5f, 0x31, 0x2f, 0x52,
    0x65, 0x6c, 0x75, 0x3b, 0x64, 0x68, 0x74, 0x5f, 0x61, 0x6e, 0x6f, 0x6d,
    0x61, 0x6c, 0x79, 0x5f, 0x63, 0x6c, 0x61, 0x73, 0x73, 0x69, 0x66, 0x69,
    0x65, 0x72, 0x5f, 0x31, 0x2f, 0x64, 0x65, 0x6e, 0x73, 0x65, 0x5f, 0x31,
    0x5f, 0x31, 0x2f, 0x42, 0x69, 0x61, 0x73, 0x41, 0x64, 0x64, 0x00, 0x00,
    0x01, 0x00, 0x00, 0x00, 0x10, 0x00, 0x00, 0x00, 0x00, 0x00, 0x16, 0x00,
    0x18, 0x00, 0x14, 0x00, 0x00, 0x00, 0x10, 0x00, 0x0c, 0x00, 0x08, 0x00,
    0x00, 0x00, 0x00, 0x00, 0x00, 0x00, 0x07, 0x00, 0x16, 0x00, 0x00, 0x00,
    0x00, 0x00, 0x00, 0x01, 0x10, 0x00, 0x00, 0x00, 0x10, 0x00, 0x00, 0x00,
    0x02, 0x00, 0x00, 0x00, 0x60, 0x00, 0x00, 0x00, 0x5c, 0xff, 0xff, 0xff,
    0x52, 0x00, 0x00, 0x00, 0x64, 0x68, 0x74, 0x5f, 0x61, 0x6e, 0x6f, 0x6d,
    0x61, 0x6c, 0x79, 0x5f, 0x63, 0x6c, 0x61, 0x73, 0x73, 0x69, 0x66, 0x69,
    0x65, 0x72, 0x5f, 0x31, 0x2f, 0x64, 0x65, 0x6e, 0x73, 0x65, 0x5f, 0x32,
    0x5f, 0x31, 0x2f, 0x52, 0x65, 0x6c, 0x75, 0x3b, 0x64, 0x68, 0x74, 0x5f,
    0x61, 0x6e, 0x6f, 0x6d, 0x61, 0x6c, 0x79, 0x5f, 0x63, 0x6c, 0x61, 0x73,
    0x73, 0x69, 0x66, 0x69, 0x65, 0x72, 0x5f, 0x31, 0x2f, 0x64, 0x65, 0x6e,
    0x73, 0x65, 0x5f, 0x32, 0x5f, 0x31, 0x2f, 0x42, 0x69, 0x61, 0x73, 0x41,
    0x64, 0x64, 0x00, 0x00, 0x01, 0x00, 0x00, 0x00, 0x08, 0x00, 0x00, 0x00,
    0x00, 0x00, 0x16, 0x00, 0x1c, 0x00, 0x18, 0x00, 0x00, 0x00, 0x14, 0x00,
    0x10, 0x00, 0x0c, 0x00, 0x00, 0x00, 0x00, 0x00, 0x08, 0x00, 0x07, 0x00,
    0x16, 0x00, 0x00, 0x00, 0x00, 0x00, 0x00, 0x01, 0x14, 0x00, 0x00, 0x00,
    0x20, 0x00, 0x00, 0x00, 0x20, 0x00, 0x00, 0x00, 0x01, 0x00, 0x00, 0x00,
    0x40, 0x00, 0x00, 0x00, 0x02, 0x00, 0x00, 0x00, 0xff, 0xff, 0xff, 0xff,
    0x02, 0x00, 0x00, 0x00, 0x04, 0x00, 0x04, 0x00, 0x04, 0x00, 0x00, 0x00,
    0x20, 0x00, 0x00, 0x00, 0x73, 0x65, 0x72, 0x76, 0x69, 0x6e, 0x67, 0x5f,
    0x64, 0x65, 0x66, 0x61, 0x75, 0x6c, 0x74, 0x5f, 0x69, 0x6e, 0x70, 0x75,
    0x74, 0x5f, 0x66, 0x65, 0x61, 0x74, 0x75, 0x72, 0x65, 0x73, 0x3a, 0x30,
    0x00, 0x00, 0x00, 0x00, 0x02, 0x00, 0x00, 0x00, 0x01, 0x00, 0x00, 0x00,
    0x02, 0x00, 0x00, 0x00, 0x04, 0x00, 0x00, 0x00, 0x40, 0x00, 0x00, 0x00,
    0x24, 0x00, 0x00, 0x00, 0x14, 0x00, 0x00, 0x00, 0x04, 0x00, 0x00, 0x00,
    0xdc, 0xff, 0xff, 0xff, 0x19, 0x00, 0x00, 0x00, 0x00, 0x00, 0x00, 0x19,
    0xe8, 0xff, 0xff, 0xff, 0x09, 0x00, 0x00, 0x00, 0x00, 0x00, 0x00, 0x09,
    0xf4, 0xff, 0xff, 0xff, 0x12, 0x00, 0x00, 0x00, 0x00, 0x00, 0x00, 0x12,
    0x0c, 0x00, 0x0c, 0x00, 0x0b, 0x00, 0x00, 0x00, 0x00, 0x00, 0x04, 0x00,
    0x0c, 0x00, 0x00, 0x00, 0x29, 0x00, 0x00, 0x00, 0x00, 0x00, 0x00, 0x29
};
const unsigned int dht_classifier_model_tflite_len = 3972;

#ifdef __cplusplus
}
#endif

#endif  /* DHT_CLASSIFIER_MODEL_H */
